
EC FD E9 15 CB 12 E7 51 02 01

24 16 13 3A CC E1 BB 38 2B 8C

3A 0C E8 FB 24 81 1D DD 89 A1

E3 1A 2A 48 06 12 2D DF D7 1C

9E C5 4B C8 D8 D8 DA C5 0F FB

27 AF 1C 18 DC 14 02 9A 01 81

95 ED E7 13 EE 22 26 E3 1A F1

98 37 0E 1F 03 5C F8 CD 0E 2A

E3 B9 12 D2 0A A8 DB F5 5E 1C
