EA FF 10 F6 FB EE F9 11 F7 03
0A FB 03 FA 02 EB 06 FD EE 16
08 FA 0E FF FB FD F8 05 FD 02
F1 0E 00 F6 FD 06 FB FF F9 01
04 F7 FA F8 04 00 03 13 04 F7
60 FB FD FC 07 FE FC 0E 04 F3
EC 0A FD 09 FE 07 07 F9 0B 08
05 03 F0 03 02 0D 16 0E FA F3
02 03 F4 FE 01 FE 01 FA 0E F4

