00 0E 02 00 F3 00 F4 01 00 FF
00 0E 03 00 FB 00 FE F0 00 02
00 00 03 00 06 00 09 F1 00 FE
00 FA FF 00 E7 00 FA 0B 00 0C
00 F8 FF 00 02 00 03 F7 00 FF
00 02 00 00 FD 00 FF 00 00 01
00 03 00 00 FE 00 00 FF 00 FF
00 07 00 00 FD 00 02 FE 00 01
00 03 05 00 FF 00 FE F4 00 02
00 FD 04 00 FD 00 03 F2 00 F0
00 03 FF 00 03 00 FC 04 00 FF
00 ED 01 00 1A 00 08 F0 00 EE
00 08 01 00 FC 00 05 FA 00 FD
00 09 01 00 03 00 06 FB 00 FD
00 03 01 00 00 00 02 FC 00 FD
00 00 FD 00 EC 00 FB 0C 00 13
00 03 F8 00 00 00 09 F6 00 F0
00 01 00 00 00 00 00 00 00 FF
00 FE 00 00 00 00 02 FE 00 00
00 04 00 00 FF 00 FD FD 00 FE
00 02 00 00 00 00 01 FC 00 FD
00 05 00 00 FB 00 F6 F7 00 FE
00 FB 01 00 06 00 00 FD 00 00
00 F6 01 00 0E 00 01 F0 00 FC
00 FC FF 00 0A 00 01 FB 00 Fa
00 FA 00 00 FD 00 03 F6 00 F0
00 09 FE 00 F7 00 02 FE 00 06
00 03 FE 00 F0 00 F4 07 00 0D
00 02 FF 00 F7 00 04 F7 00 FC
00 FF 00 00 00 00 FF 02 00 00
00 FF 00 00 00 00 00 00 00 01
00 05 FE 00 FF 00 FF 01 00 00
00 0A FE 00 05 00 01 06 00 FE
00 02 00 00 08 00 01 F7 00 FF
00 F0 FD 00 F0 00 06 03 00 05
00 EE 00 00 0C 00 04 FE 00 FC
00 02 03 00 02 00 FF 06 00 FC
00 01 01 00 08 00 03 01 00 FE
00 01 FE 00 F9 00 00 02 00 04
00 07 FF 00 F0 00 ED 07 00 12
00 01 08 00 F8 00 03 F0 00 F7
00 FE FF 00 FF 00 FF 01 00 00
00 FF 00 00 00 00 00 FF 00 00
00 05 01 00 FF 00 03 02 00 FE
00 0E 00 00 FC 00 F9 03 00 FC
00 08 01 00 FB 00 02 03 00 FD
00 FD FF 00 F3 00 05 09 00 0C
00 EF 01 00 07 00 0C FA 00 FE
00 F6 FE 00 FC 00 FE FE 00 00
00 FD 01 00 09 00 05 FD 00 FC
00 02 FE 00 02 00 F9 02 00 07
00 0A FA 00 FE 00 E9 04 00 08
00 02 FD 00 FB 00 00 04 00 FE
00 00 01 00 02 00 01 00 00 FF
00 00 FF 00 00 00 FD 03 00 03
00 04 FF 00 FA 00 00 01 00 03
00 FC FF 00 04 00 03 08 00 F9
00 FB FE 00 01 00 FD 06 00 FA
00 FC 00 00 FC 00 01 03 00 FE
00 FC 01 00 00 00 03 F8 00 FE
00 F9 FE 00 00 00 FD FF 00 00
00 F8 FF 00 05 00 FD 03 00 00
00 FE FF 00 03 00 F9 02 00 FD
00 10 FC 00 FB 00 DE FE 00 04
00 FC FD 00 F9 00 F7 07 00 F6
00 00 02 00 FD 00 00 FD 00 01
00 FF FF 00 00 00 FE 02 00 04
00 FF 00 00 FC 00 FC 06 00 05
00 F8 FE 00 04 00 F7 09 00 FF
00 FD FF 00 FA 00 FA 06 00 FB
00 FF 00 00 F9 00 03 05 00 F6
00 FC 01 00 01 00 06 FC 00 FA
00 F8 FF 00 02 00 03 00 00 06
00 F2 01 00 0B 00 07 04 00 03
00 FE FF 00 FE 00 07 03 00 FB
00 0C FD 00 FD 00 F0 07 00 F9
00 F4 01 00 00 00 FC 04 00 FD
00 F7 02 00 00 00 04 02 00 00
00 FF FF 00 01 00 FE 00 00 00
00 FA 00 00 FD 00 FE FF 00 04
00 F7 FE 00 02 00 F7 0B 00 07
00 F5 00 00 02 00 FC 07 00 05
00 01 00 00 F4 00 03 05 00 FD
00 FE 00 00 01 00 07 05 00 FE
00 04 09 00 00 00 06 FD 00 08
00 F4 01 00 0C 00 06 FE 00 03
00 FA FD 00 FE 00 08 01 00 02
00 10 FC 00 FD 00 03 08 00 F3
00 F4 04 00 FC 00 04 05 00 06
00 F7 01 00 00 00 03 03 00 03
00 FE FF 00 01 00 FF 00 00 01
00 FD 02 00 03 00 00 FC 00 01
00 FA 05 00 FB 00 FC 03 00 03
00 FF 00 00 00 00 F7 08 00 07
00 FE 02 00 F5 00 03 04 00 07
00 02 00 00 02 00 08 01 00 03
00 0F FD 00 05 00 F9 FD 00 04
00 FF 00 00 0A 00 FE F5 00 01
00 FD FE 00 08 00 F9 FC 00 05
00 0D F7 00 FC 00 F9 09 00 F5
00 FF 01 00 00 00 FE FF 00 13
00 FD 01 00 01 00 FF 01 00 0A
00 FA 01 00 01 00 00 FE 00 FB
00 02 00 00 02 00 01 01 00 04
00 FF FF 00 FB 00 06 F7 00 09
00 02 FC 00 FE 00 F9 FF 00 0A
00 FB FD 00 FD 00 FF 05 00 08
00 FD 00 00 03 00 01 05 00 09
90 05 00 00 FF 00 01 02 00 01
00 02 01 00 01 00 FF FC 00 03
00 F8 FF 00 0D 00 04 FB 00 02
00 07 FA 00 07 00 03 FF 00 01
00 07 01 00 F7 00 FC F7 00 06
00 FC 03 00 06 00 06 FC 00 FC
00 01 01 00 00 00 FE FF 00 FC
00 FC 03 00 04 00 01 00 00 F6
00 FF 02 00 FE 00 FF 02 00 08
00 00 FF 00 FA 00 FB F3 00 06
00 02 FF 00 F9 00 01 F3 00 08
00 05 FE 00 F5 00 FB 02 00 0D
00 11 06 00 FA 00 FE 07 00 03
00 05 01 00 04 00 04 09 00 09
00 00 00 00 03 00 03 06 00 02
00 02 FD 00 07 00 0B F8 00 FE
00 04 02 00 02 00 02 FD 00 04
00 F1 02 00 09 00 03 07 00 FD
00 00 00 00 04 00 00 01 00 FC
00 FC 00 00 04 00 05 FD 00 FD
00 07 01 00 FF 00 FC FC 00 03
00 FF FD 00 FA 00 F8 FE 00 0E
00 0D FE 00 F2 00 F8 FD 00 0D
00 09 FE 00 F5 00 04 FD 00 09
